{
  "version": "1.0",
  "truncation": {
    "direction": "Right",
    "max_length": 48,
    "strategy": "LongestFirst",
    "stride": 0
  },
  "padding": null,
  "added_tokens": [
    {
      "id": 0,
      "content": "<pad>",
      "single_word": false,
      "lstrip": false,
      "rstrip": false,
      "normalized": false,
      "special": true
    },
    {
      "id": 1,
      "content": "</s>",
      "single_word": false,
      "lstrip": false,
      "rstrip": false,
      "normalized": false,
      "special": true
    },
    {
      "id": 2,
      "content": "<unk>",
      "single_word": false,
      "lstrip": false,
      "rstrip": false,
      "normalized": false,
      "special": true
    },
    {
      "id": 3,
      "content": "<|system|>",
      "single_word": false,
      "lstrip": false,
      "rstrip": false,
      "normalized": false,
      "special": true
    },
    {
      "id": 4,
      "content": "<|user|>",
      "single_word": false,
      "lstrip": false,
      "rstrip": false,
      "normalized": false,
      "special": true
    },
    {
      "id": 5,
      "content": "<|assistant|>",
      "single_word": false,
      "lstrip": false,
      "rstrip": false,
      "normalized": false,
      "special": true
    }
  ],
  "normalizer": null,
  "pre_tokenizer": {
    "type": "Whitespace"
  },
  "post_processor": null,
  "decoder": null,
  "model": {
    "type": "BPE",
    "dropout": null,
    "unk_token": "<unk>",
    "continuing_subword_prefix": null,
    "end_of_word_suffix": null,
    "fuse_unk": false,
    "byte_fallback": false,
    "ignore_merges": false,
    "vocab": {
      "<pad>": 0,
      "</s>": 1,
      "<unk>": 2,
      "<|system|>": 3,
      "<|user|>": 4,
      "<|assistant|>": 5,
      "!": 6,
      "'": 7,
      "(": 8,
      ")": 9,
      ",": 10,
      ".": 11,
      "/": 12,
      "0": 13,
      "1": 14,
      "2": 15,
      "3": 16,
      "4": 17,
      "5": 18,
      "6": 19,
      "7": 20,
      "8": 21,
      "9": 22,
      "=": 23,
      "A": 24,
      "B": 25,
      "C": 26,
      "D": 27,
      "E": 28,
      "F": 29,
      "G": 30,
      "H": 31,
      "I": 32,
      "J": 33,
      "K": 34,
      "L": 35,
      "M": 36,
      "N": 37,
      "O": 38,
      "P": 39,
      "Q": 40,
      "R": 41,
      "S": 42,
      "T": 43,
      "U": 44,
      "V": 45,
      "W": 46,
      "X": 47,
      "Y": 48,
      "Z": 49,
      "_": 50,
      "a": 51,
      "b": 52,
      "c": 53,
      "d": 54,
      "e": 55,
      "f": 56,
      "g": 57,
      "h": 58,
      "i": 59,
      "k": 60,
      "l": 61,
      "m": 62,
      "n": 63,
      "o": 64,
      "p": 65,
      "q": 66,
      "r": 67,
      "s": 68,
      "t": 69,
      "u": 70,
      "v": 71,
      "w": 72,
      "x": 73,
      "y": 74,
      "z": 75,
      "|": 76,
      "—": 77,
      "er": 78,
      "ha": 79,
      "om": 80,
      "ome": 81,
      "or": 82,
      "in": 83,
      "nd": 84,
      "ow": 85,
      "at": 86,
      "ut": 87,
      "un": 88,
      "ar": 89,
      "ver": 90,
      "run": 91,
      "nt": 92,
      "out": 93,
      "la": 94,
      "ts": 95,
      "um": 96,
      "over": 97,
      "se": 98,
      "hand": 99,
      "ter": 100,
      "mome": 101,
      "runs": 102,
      "moment": 103,
      "bow": 104,
      "sc": 105,
      "ore": 106,
      "bowl": 107,
      "_in": 108,
      "_hand": 109,
      "bat": 110,
      "come": 111,
      "kts": 112,
      "pha": 113,
      "wkts": 114,
      "outcome": 115,
      "momentum": 116,
      "score": 117,
      "bowler": 118,
      "_in_hand": 119,
      "batter": 120,
      "phase": 121,
      "wkts_in_hand": 122,
      "RR": 123,
      "le": 124,
      "th": 125,
      "et": 126,
      "id": 127,
      "lay": 128,
      "10": 129,
      "it": 130,
      "to": 131,
      "ro": 132,
      "an": 133,
      "get": 134,
      "ll": 135,
      "tar": 136,
      "RRR": 137,
      "target": 138,
      "es": 139,
      "play": 140,
      "the": 141,
      "de": 142,
      "ing": 143,
      "dle": 144,
      "mid": 145,
      "middle": 146,
      "SI": 147,
      "for": 148,
      "mb": 149,
      "ay": 150,
      "pow": 151,
      "erplay": 152,
      "powerplay": 153,
      "17": 154,
      "ck": 155,
      "el": 156,
      "and": 157,
      "18": 158,
      "ela": 159,
      "ri": 160,
      "ani": 161,
      "ath": 162,
      "16": 163,
      "hat": 164,
      "are": 165,
      "death": 166,
      "st": 167,
      "gh": 168,
      "ad": 169,
      "LE": 170,
      "fi": 171,
      "kar": 172,
      "re": 173,
      "DO": 174,
      "eld": 175,
      "field": 176,
      "DOT": 177,
      "12": 178,
      "19": 179,
      "OU": 180,
      "hi": 181,
      "ix": 182,
      "WI": 183,
      "ke": 184,
      "GLE": 185,
      "NGLE": 186,
      "fr": 187,
      "sing": 188,
      "SINGLE": 189,
      "from": 190,
      "single": 191,
      "13": 192,
      "Qu": 193,
      "ni": 194,
      "SIX": 195,
      "ght": 196,
      "aut": 197,
      "by": 198,
      "Qui": 199,
      "11": 200,
      "15": 201,
      "FOU": 202,
      "aw": 203,
      "cro": 204,
      "il": 205,
      "pp": 206,
      "FOUR": 207,
      "away": 208,
      "Dela": 209,
      "Ir": 210,
      "croix": 211,
      "Delacroix": 212,
      "Irani": 213,
      "hit": 214,
      "ero": 215,
      "as": 216,
      "ed": 217,
      "am": 218,
      "is": 219,
      "mber": 220,
      "str": 221,
      "20": 222,
      "Ku": 223,
      "Raut": 224,
      "Yand": 225,
      "lkar": 226,
      "uri": 227,
      "ate": 228,
      "amuri": 229,
      "Kulkar": 230,
      "Rautela": 231,
      "Yandamuri": 232,
      "Kulkarni": 233,
      "ning": 234,
      "ton": 235,
      "CK": 236,
      "ET": 237,
      "Whit": 238,
      "_out": 239,
      "ai": 240,
      "er_out": 241,
      "player_out": 242,
      "WICK": 243,
      "Whitfield": 244,
      "WICKET": 245,
      "14": 246,
      "La": 247,
      "al": 248,
      "ff": 249,
      "nder": 250,
      "that": 251,
      "Fit": 252,
      "ep": 253,
      "ne": 254,
      "no": 255,
      "zro": 256,
      "Fitzro": 257,
      "Fitzroy": 258,
      "Tre": 259,
      "Under": 260,
      "ou": 261,
      "ves": 262,
      "wo": 263,
      "mblay": 264,
      "hill": 265,
      "keep": 266,
      "Tremblay": 267,
      "Underhill": 268,
      "Ob": 269,
      "Sar": 270,
      "sh": 271,
      "wate": 272,
      "188": 273,
      "eroi": 274,
      "Oberoi": 275,
      "Sarwate": 276,
      "TW": 277,
      "196": 278,
      "mbert": 279,
      "Lambert": 280,
      "TWO": 281,
      "Jad": 282,
      "Vas": 283,
      "Wa": 284,
      "go": 285,
      "wani": 286,
      "hav": 287,
      "into": 288,
      "ide": 289,
      "dekar": 290,
      "181": 291,
      "Quill": 292,
      "Jadhav": 293,
      "Vaswani": 294,
      "Wadekar": 295,
      "Ever": 296,
      "Ho": 297,
      "S1": 298,
      "ake": 299,
      "en": 300,
      "ell": 301,
      "ol": 302,
      "ot": 303,
      "one": 304,
      "sol": 305,
      "take": 306,
      "well": 307,
      "oway": 308,
      "lloway": 309,
      "fielder": 310,
      "Everton": 311,
      "Holloway": 312,
      "taken": 313,
      "El": 314,
      "Sil": 315,
      "Ut": 316,
      "cri": 317,
      "ge": 318,
      "lo": 319,
      "happ": 320,
      "vers": 321,
      "running": 322,
      "lapp": 323,
      "cket": 324,
      "ely": 325,
      "ads": 326,
      "Quick": 327,
      "Ellapp": 328,
      "Silvers": 329,
      "Uthapp": 330,
      "cricket": 331,
      "Ellappan": 332,
      "Uthappa": 333,
      "25": 334,
      "AU": 335,
      "CAU": 336,
      "ES1": 337,
      "GH": 338,
      "Mor": 339,
      "ap": 340,
      "au": 341,
      "cau": 342,
      "gap": 343,
      "off": 344,
      "ti": 345,
      "two": 346,
      "tlo": 347,
      "ugh": 348,
      "rough": 349,
      "170": 350,
      "206": 351,
      "our": 352,
      "CAUGH": 353,
      "Mortlo": 354,
      "caught": 355,
      "CAUGHT": 356,
      "Mortlock": 357,
      "Chand": 358,
      "That": 359,
      "ran": 360,
      "tid": 361,
      "ers": 362,
      "through": 363,
      "rea": 364,
      "Chandran": 365,
      "tidy": 366,
      "22": 367,
      "Amb": 368,
      "Cum": 369,
      "Des": 370,
      "Gai": 371,
      "Pu": 372,
      "dg": 373,
      "four": 374,
      "hp": 375,
      "kw": 376,
      "min": 377,
      "ns": 378,
      "nu": 379,
      "ra": 380,
      "har": 381,
      "rose": 382,
      "ande": 383,
      "strai": 384,
      "shed": 385,
      "Ambrose": 386,
      "Cummin": 387,
      "Deshp": 388,
      "Gaikw": 389,
      "Pushed": 390,
      "dges": 391,
      "nudges": 392,
      "straight": 393,
      "Cummins": 394,
      "Deshpande": 395,
      "Gaikwad": 396,
      "Bar": 397,
      "DES1": 398,
      "Nes": 399,
      "Tha": 400,
      "bit": 401,
      "ce": 402,
      "if": 403,
      "ks": 404,
      "mp": 405,
      "ret": 406,
      "wor": 407,
      "179": 408,
      "WIDES1": 409,
      "keeper": 410,
      "Barret": 411,
      "Nesbit": 412,
      "Thamp": 413,
      "works": 414,
      "Barretto": 415,
      "Nesbitt": 416,
      "Thampi": 417,
      "21": 418,
      "23": 419,
      "Har": 420,
      "Hero": 421,
      "Jen": 422,
      "bor": 423,
      "ew": 424,
      "iew": 425,
      "pe": 426,
      "view": 427,
      "lets": 428,
      "nings": 429,
      "alle": 430,
      "Harbor": 431,
      "Herons": 432,
      "Jennings": 433,
      "Harborview": 434,
      "Grea": 435,
      "Ives": 436,
      "Mi": 437,
      "Pe": 438,
      "Pil": 439,
      "Ro": 440,
      "ba": 441,
      "si": 442,
      "lai": 443,
      "thwell": 444,
      "ron": 445,
      "mberton": 446,
      "stry": 447,
      "Greaves": 448,
      "Mistry": 449,
      "Pemberton": 450,
      "Pillai": 451,
      "Rothwell": 452,
      "24": 453,
      "Cor": 454,
      "Cit": 455,
      "Char": 456,
      "Int": 457,
      "No": 458,
      "Zut": 459,
      "ab": 460,
      "ch": 461,
      "cr": 462,
      "gers": 463,
      "ile": 464,
      "mas": 465,
      "mile": 466,
      "shi": 467,
      "ve": 468,
      "owd": 469,
      "utely": 470,
      "unch": 471,
      "launch": 472,
      "rope": 473,
      "ings": 474,
      "OUT": 475,
      "keeps": 476,
      "solutely": 477,
      "ball": 478,
      "sive": 479,
      "Coral": 480,
      "City": 481,
      "Chargers": 482,
      "Into": 483,
      "Zutshi": 484,
      "absolutely": 485,
      "crowd": 486,
      "massive": 487,
      "miles": 488,
      "launches": 489,
      "Ad": 490,
      "BO": 491,
      "Kings": 492,
      "Nom": 493,
      "Nor": 494,
      "Sa": 495,
      "What": 496,
      "WLE": 497,
      "ant": 498,
      "be": 499,
      "bri": 500,
      "end": 501,
      "fend": 502,
      "gate": 503,
      "iant": 504,
      "ly": 505,
      "man": 506,
      "uge": 507,
      "vani": 508,
      "thre": 509,
      "thgate": 510,
      "idly": 511,
      "lliant": 512,
      "defend": 513,
      "cking": 514,
      "stay": 515,
      "his": 516,
      "ffron": 517,
      "solidly": 518,
      "gets": 519,
      "Advani": 520,
      "BOWLE": 521,
      "Nomads": 522,
      "Northgate": 523,
      "Saffron": 524,
      "brilliant": 525,
      "defends": 526,
      "BOWLED": 527,
      "30": 528,
      "Dot": 529,
      "Ni": 530,
      "Ock": 531,
      "ced": 532,
      "cely": 533,
      "ps": 534,
      "pla": 535,
      "shat": 536,
      "six": 537,
      "umps": 538,
      "tered": 539,
      "ded": 540,
      "stumps": 541,
      "tight": 542,
      "alled": 543,
      "Nicely": 544,
      "Ockwell": 545,
      "placed": 546,
      "shattered": 547,
      "Cra": 548,
      "GO": 549,
      "NE": 550,
      "Wide": 551,
      "ces": 552,
      "called": 553,
      "dow": 554,
      "fen": 555,
      "gif": 556,
      "her": 557,
      "kha": 558,
      "kes": 559,
      "mes": 560,
      "side": 561,
      "ull": 562,
      "wide": 563,
      "has": 564,
      "ays": 565,
      "rikes": 566,
      "strikes": 567,
      "autif": 568,
      "strays": 569,
      "Lakha": 570,
      "shot": 571,
      "times": 572,
      "races": 573,
      "beautif": 574,
      "threads": 575,
      "Cracking": 576,
      "GONE": 577,
      "down": 578,
      "fence": 579,
      "gift": 580,
      "here": 581,
      "ully": 582,
      "Lakhani": 583,
      "beautifully": 584,
      "112": 585,
      "26": 586,
      "28": 587,
      "37": 588,
      "46": 589,
      "53": 590,
      "55": 591,
      "75": 592,
      "Bla": 593,
      "Huge": 594,
      "ail": 595,
      "cl": 596,
      "eded": 597,
      "imb": 598,
      "pers": 599,
      "sail": 600,
      "ars": 601,
      "108": 602,
      "169": 603,
      "needed": 604,
      "climb": 605,
      "sails": 606,
      "climbs": 607,
      "27": 608,
      "31": 609,
      "33": 610,
      "34": 611,
      "36": 612,
      "41": 613,
      "45": 614,
      "49": 615,
      "57": 616,
      "82": 617,
      "91": 618,
      "98": 619,
      "Ano": 620,
      "BY": 621,
      "Gl": 622,
      "Na": 623,
      "Two": 624,
      "Vi": 625,
      "Vel": 626,
      "Valle": 627,
      "cha": 628,
      "ds": 629,
      "dot": 630,
      "ee": 631,
      "iou": 632,
      "nce": 633,
      "oo": 634,
      "qu": 635,
      "res": 636,
      "squ": 637,
      "vet": 638,
      "zing": 639,
      "had": 640,
      "oriou": 641,
      "ther": 642,
      "idu": 643,
      "161": 644,
      "134": 645,
      "byes": 646,
      "hard": 647,
      "Another": 648,
      "Gloriou": 649,
      "Naidu": 650,
      "Vipers": 651,
      "Velvet": 652,
      "Valley": 653,
      "chance": 654,
      "eezing": 655,
      "squeezing": 656,
      "Glorious": 657,
      "43": 658,
      "50": 659,
      "58": 660,
      "65": 661,
      "77": 662,
      "92": 663,
      "99": 664,
      "Bay": 665,
      "Bas": 666,
      "Far": 667,
      "Ha": 668,
      "Ver": 669,
      "brea": 670,
      "can": 671,
      "huge": 672,
      "ik": 673,
      "kthrough": 674,
      "par": 675,
      "qi": 676,
      "ster": 677,
      "up": 678,
      "zar": 679,
      "lander": 680,
      "102": 681,
      "107": 682,
      "roars": 683,
      "depar": 684,
      "163": 685,
      "126": 686,
      "135": 687,
      "alt": 688,
      "Blaster": 689,
      "BYES1": 690,
      "ooqi": 691,
      "Basalt": 692,
      "Farooqi": 693,
      "Hazar": 694,
      "Verlander": 695,
      "breakthrough": 696,
      "ika": 697,
      "departs": 698,
      "Blasters": 699,
      "Hazarika": 700,
      "03": 701,
      "05": 702,
      "09": 703,
      "117": 704,
      "119": 705,
      "29": 706,
      "35": 707,
      "42": 708,
      "44": 709,
      "47": 710,
      "48": 711,
      "54": 712,
      "56": 713,
      "59": 714,
      "61": 715,
      "63": 716,
      "64": 717,
      "71": 718,
      "72": 719,
      "76": 720,
      "80": 721,
      "81": 722,
      "83": 723,
      "85": 724,
      "86": 725,
      "90": 726,
      "93": 727,
      "95": 728,
      "96": 729,
      "97": 730,
      "AL": 731,
      "BW": 732,
      "BAL": 733,
      "EE": 734,
      "Fal": 735,
      "Four": 736,
      "GBYES1": 737,
      "HR": 738,
      "Iron": 739,
      "LS1": 740,
      "LBW": 741,
      "NO": 742,
      "Sm": 743,
      "Sup": 744,
      "Th": 745,
      "THR": 746,
      "ak": 747,
      "bo": 748,
      "bu": 749,
      "bou": 750,
      "co": 751,
      "cle": 752,
      "ever": 753,
      "fin": 754,
      "ith": 755,
      "od": 756,
      "pres": 757,
      "su": 758,
      "with": 759,
      "erb": 760,
      "infield": 761,
      "ndar": 762,
      "ating": 763,
      "ard": 764,
      "art": 765,
      "leg": 766,
      "100": 767,
      "106": 768,
      "177": 769,
      "178": 770,
      "ckwo": 771,
      "160": 772,
      "165": 773,
      "added": 774,
      "LEGBYES1": 775,
      "122": 776,
      "123": 777,
      "128": 778,
      "192": 779,
      "138": 780,
      "139": 781,
      "Qures": 782,
      "150": 783,
      "154": 784,
      "157": 785,
      "158": 786,
      "ilds": 787,
      "148": 788,
      "ticking": 789,
      "cent": 790,
      "peak": 791,
      "beating": 792,
      "three": 793,
      "Blackwo": 794,
      "BALLS1": 795,
      "Falco": 796,
      "Ironpeak": 797,
      "NOBALLS1": 798,
      "Smart": 799,
      "Superb": 800,
      "THREE": 801,
      "board": 802,
      "builds": 803,
      "boundar": 804,
      "clears": 805,
      "every": 806,
      "finds": 807,
      "pressu": 808,
      "Qureshi": 809,
      "Blackwood": 810,
      "Falcons": 811,
      "boundary": 812,
      "pressure": 813,
      "02": 814,
      "04": 815,
      "06": 816,
      "08": 817,
      "32": 818,
      "38": 819,
      "39": 820,
      "40": 821,
      "51": 822,
      "52": 823,
      "60": 824,
      "66": 825,
      "67": 826,
      "69": 827,
      "73": 828,
      "74": 829,
      "78": 830,
      "79": 831,
      "84": 832,
      "87": 833,
      "88": 834,
      "89": 835,
      "De": 836,
      "ES": 837,
      "Ma": 838,
      "N_": 839,
      "Off": 840,
      "RU": 841,
      "ag": 842,
      "br": 843,
      "bw": 844,
      "ct": 845,
      "crea": 846,
      "ft": 847,
      "fle": 848,
      "fro": 849,
      "gn": 850,
      "gath": 851,
      "im": 852,
      "ld": 853,
      "lum": 854,
      "lbw": 855,
      "mo": 856,
      "more": 857,
      "mag": 858,
      "of": 859,
      "pads": 860,
      "plum": 861,
      "ry": 862,
      "ss": 863,
      "tra": 864,
      "ury": 865,
      "xim": 866,
      "unlo": 867,
      "overst": 868,
      "oversh": 869,
      "scam": 870,
      "bowled": 871,
      "101": 872,
      "104": 873,
      "109": 874,
      "they": 875,
      "173": 876,
      "184": 877,
      "185": 878,
      "186": 879,
      "162": 880,
      "164": 881,
      "166": 882,
      "ficent": 883,
      "fift": 884,
      "remo": 885,
      "125": 886,
      "191": 887,
      "194": 888,
      "130": 889,
      "131": 890,
      "132": 891,
      "136": 892,
      "nificent": 893,
      "111": 894,
      "151": 895,
      "152": 896,
      "153": 897,
      "cross": 898,
      "pped": 899,
      "201": 900,
      "142": 901,
      "143": 902,
      "144": 903,
      "146": 904,
      "eps": 905,
      "gold": 906,
      "back": 907,
      "sign": 908,
      "BYES": 909,
      "oots": 910,
      "The": 911,
      "Through": 912,
      "century": 913,
      "everyone": 914,
      "Defle": 915,
      "Maxim": 916,
      "N_OUT": 917,
      "RUN_OUT": 918,
      "brings": 919,
      "cted": 920,
      "crease": 921,
      "front": 922,
      "gather": 923,
      "magnificent": 924,
      "plumb": 925,
      "trapped": 926,
      "unloads": 927,
      "oversteps": 928,
      "overshoots": 929,
      "scampers": 930,
      "fifty": 931,
      "removes": 932,
      "signalled": 933,
      "BYES2": 934,
      "Deflected": 935,
      "Maximum": 936
    },
    "merges": [
      [
        "e",
        "r"
      ],
      [
        "h",
        "a"
      ],
      [
        "o",
        "m"
      ],
      [
        "om",
        "e"
      ],
      [
        "o",
        "r"
      ],
      [
        "i",
        "n"
      ],
      [
        "n",
        "d"
      ],
      [
        "o",
        "w"
      ],
      [
        "a",
        "t"
      ],
      [
        "u",
        "t"
      ],
      [
        "u",
        "n"
      ],
      [
        "a",
        "r"
      ],
      [
        "v",
        "er"
      ],
      [
        "r",
        "un"
      ],
      [
        "n",
        "t"
      ],
      [
        "o",
        "ut"
      ],
      [
        "l",
        "a"
      ],
      [
        "t",
        "s"
      ],
      [
        "u",
        "m"
      ],
      [
        "o",
        "ver"
      ],
      [
        "s",
        "e"
      ],
      [
        "ha",
        "nd"
      ],
      [
        "t",
        "er"
      ],
      [
        "m",
        "ome"
      ],
      [
        "run",
        "s"
      ],
      [
        "mome",
        "nt"
      ],
      [
        "b",
        "ow"
      ],
      [
        "s",
        "c"
      ],
      [
        "or",
        "e"
      ],
      [
        "bow",
        "l"
      ],
      [
        "_",
        "in"
      ],
      [
        "_",
        "hand"
      ],
      [
        "b",
        "at"
      ],
      [
        "c",
        "ome"
      ],
      [
        "k",
        "ts"
      ],
      [
        "p",
        "ha"
      ],
      [
        "w",
        "kts"
      ],
      [
        "out",
        "come"
      ],
      [
        "moment",
        "um"
      ],
      [
        "sc",
        "ore"
      ],
      [
        "bowl",
        "er"
      ],
      [
        "_in",
        "_hand"
      ],
      [
        "bat",
        "ter"
      ],
      [
        "pha",
        "se"
      ],
      [
        "wkts",
        "_in_hand"
      ],
      [
        "R",
        "R"
      ],
      [
        "l",
        "e"
      ],
      [
        "t",
        "h"
      ],
      [
        "e",
        "t"
      ],
      [
        "i",
        "d"
      ],
      [
        "la",
        "y"
      ],
      [
        "1",
        "0"
      ],
      [
        "i",
        "t"
      ],
      [
        "t",
        "o"
      ],
      [
        "r",
        "o"
      ],
      [
        "a",
        "n"
      ],
      [
        "g",
        "et"
      ],
      [
        "l",
        "l"
      ],
      [
        "t",
        "ar"
      ],
      [
        "RR",
        "R"
      ],
      [
        "tar",
        "get"
      ],
      [
        "e",
        "s"
      ],
      [
        "p",
        "lay"
      ],
      [
        "th",
        "e"
      ],
      [
        "d",
        "e"
      ],
      [
        "in",
        "g"
      ],
      [
        "d",
        "le"
      ],
      [
        "m",
        "id"
      ],
      [
        "mid",
        "dle"
      ],
      [
        "S",
        "I"
      ],
      [
        "f",
        "or"
      ],
      [
        "m",
        "b"
      ],
      [
        "a",
        "y"
      ],
      [
        "p",
        "ow"
      ],
      [
        "er",
        "play"
      ],
      [
        "pow",
        "erplay"
      ],
      [
        "1",
        "7"
      ],
      [
        "c",
        "k"
      ],
      [
        "e",
        "l"
      ],
      [
        "a",
        "nd"
      ],
      [
        "1",
        "8"
      ],
      [
        "e",
        "la"
      ],
      [
        "r",
        "i"
      ],
      [
        "an",
        "i"
      ],
      [
        "at",
        "h"
      ],
      [
        "1",
        "6"
      ],
      [
        "ha",
        "t"
      ],
      [
        "ar",
        "e"
      ],
      [
        "de",
        "ath"
      ],
      [
        "s",
        "t"
      ],
      [
        "g",
        "h"
      ],
      [
        "a",
        "d"
      ],
      [
        "L",
        "E"
      ],
      [
        "f",
        "i"
      ],
      [
        "k",
        "ar"
      ],
      [
        "r",
        "e"
      ],
      [
        "D",
        "O"
      ],
      [
        "el",
        "d"
      ],
      [
        "fi",
        "eld"
      ],
      [
        "DO",
        "T"
      ],
      [
        "1",
        "2"
      ],
      [
        "1",
        "9"
      ],
      [
        "O",
        "U"
      ],
      [
        "h",
        "i"
      ],
      [
        "i",
        "x"
      ],
      [
        "W",
        "I"
      ],
      [
        "k",
        "e"
      ],
      [
        "G",
        "LE"
      ],
      [
        "N",
        "GLE"
      ],
      [
        "f",
        "r"
      ],
      [
        "s",
        "ing"
      ],
      [
        "SI",
        "NGLE"
      ],
      [
        "fr",
        "om"
      ],
      [
        "sing",
        "le"
      ],
      [
        "1",
        "3"
      ],
      [
        "Q",
        "u"
      ],
      [
        "n",
        "i"
      ],
      [
        "SI",
        "X"
      ],
      [
        "gh",
        "t"
      ],
      [
        "a",
        "ut"
      ],
      [
        "b",
        "y"
      ],
      [
        "Qu",
        "i"
      ],
      [
        "1",
        "1"
      ],
      [
        "1",
        "5"
      ],
      [
        "F",
        "OU"
      ],
      [
        "a",
        "w"
      ],
      [
        "c",
        "ro"
      ],
      [
        "i",
        "l"
      ],
      [
        "p",
        "p"
      ],
      [
        "FOU",
        "R"
      ],
      [
        "aw",
        "ay"
      ],
      [
        "D",
        "ela"
      ],
      [
        "I",
        "r"
      ],
      [
        "cro",
        "ix"
      ],
      [
        "Dela",
        "croix"
      ],
      [
        "Ir",
        "ani"
      ],
      [
        "h",
        "it"
      ],
      [
        "er",
        "o"
      ],
      [
        "a",
        "s"
      ],
      [
        "e",
        "d"
      ],
      [
        "a",
        "m"
      ],
      [
        "i",
        "s"
      ],
      [
        "mb",
        "er"
      ],
      [
        "st",
        "r"
      ],
      [
        "2",
        "0"
      ],
      [
        "K",
        "u"
      ],
      [
        "R",
        "aut"
      ],
      [
        "Y",
        "and"
      ],
      [
        "l",
        "kar"
      ],
      [
        "u",
        "ri"
      ],
      [
        "at",
        "e"
      ],
      [
        "am",
        "uri"
      ],
      [
        "Ku",
        "lkar"
      ],
      [
        "Raut",
        "ela"
      ],
      [
        "Yand",
        "amuri"
      ],
      [
        "Kulkar",
        "ni"
      ],
      [
        "n",
        "ing"
      ],
      [
        "to",
        "n"
      ],
      [
        "C",
        "K"
      ],
      [
        "E",
        "T"
      ],
      [
        "W",
        "hit"
      ],
      [
        "_",
        "out"
      ],
      [
        "a",
        "i"
      ],
      [
        "er",
        "_out"
      ],
      [
        "play",
        "er_out"
      ],
      [
        "WI",
        "CK"
      ],
      [
        "Whit",
        "field"
      ],
      [
        "WICK",
        "ET"
      ],
      [
        "1",
        "4"
      ],
      [
        "L",
        "a"
      ],
      [
        "a",
        "l"
      ],
      [
        "f",
        "f"
      ],
      [
        "nd",
        "er"
      ],
      [
        "t",
        "hat"
      ],
      [
        "F",
        "it"
      ],
      [
        "e",
        "p"
      ],
      [
        "n",
        "e"
      ],
      [
        "n",
        "o"
      ],
      [
        "z",
        "ro"
      ],
      [
        "Fit",
        "zro"
      ],
      [
        "Fitzro",
        "y"
      ],
      [
        "T",
        "re"
      ],
      [
        "U",
        "nder"
      ],
      [
        "o",
        "u"
      ],
      [
        "v",
        "es"
      ],
      [
        "w",
        "o"
      ],
      [
        "mb",
        "lay"
      ],
      [
        "hi",
        "ll"
      ],
      [
        "ke",
        "ep"
      ],
      [
        "Tre",
        "mblay"
      ],
      [
        "Under",
        "hill"
      ],
      [
        "O",
        "b"
      ],
      [
        "S",
        "ar"
      ],
      [
        "s",
        "h"
      ],
      [
        "w",
        "ate"
      ],
      [
        "18",
        "8"
      ],
      [
        "ero",
        "i"
      ],
      [
        "Ob",
        "eroi"
      ],
      [
        "Sar",
        "wate"
      ],
      [
        "T",
        "W"
      ],
      [
        "19",
        "6"
      ],
      [
        "mber",
        "t"
      ],
      [
        "La",
        "mbert"
      ],
      [
        "TW",
        "O"
      ],
      [
        "J",
        "ad"
      ],
      [
        "V",
        "as"
      ],
      [
        "W",
        "a"
      ],
      [
        "g",
        "o"
      ],
      [
        "w",
        "ani"
      ],
      [
        "ha",
        "v"
      ],
      [
        "in",
        "to"
      ],
      [
        "id",
        "e"
      ],
      [
        "de",
        "kar"
      ],
      [
        "18",
        "1"
      ],
      [
        "Qui",
        "ll"
      ],
      [
        "Jad",
        "hav"
      ],
      [
        "Vas",
        "wani"
      ],
      [
        "Wa",
        "dekar"
      ],
      [
        "E",
        "ver"
      ],
      [
        "H",
        "o"
      ],
      [
        "S",
        "1"
      ],
      [
        "a",
        "ke"
      ],
      [
        "e",
        "n"
      ],
      [
        "e",
        "ll"
      ],
      [
        "o",
        "l"
      ],
      [
        "o",
        "t"
      ],
      [
        "o",
        "ne"
      ],
      [
        "s",
        "ol"
      ],
      [
        "t",
        "ake"
      ],
      [
        "w",
        "ell"
      ],
      [
        "ow",
        "ay"
      ],
      [
        "ll",
        "oway"
      ],
      [
        "field",
        "er"
      ],
      [
        "Ever",
        "ton"
      ],
      [
        "Ho",
        "lloway"
      ],
      [
        "take",
        "n"
      ],
      [
        "E",
        "l"
      ],
      [
        "S",
        "il"
      ],
      [
        "U",
        "t"
      ],
      [
        "c",
        "ri"
      ],
      [
        "g",
        "e"
      ],
      [
        "l",
        "o"
      ],
      [
        "ha",
        "pp"
      ],
      [
        "ver",
        "s"
      ],
      [
        "run",
        "ning"
      ],
      [
        "la",
        "pp"
      ],
      [
        "ck",
        "et"
      ],
      [
        "el",
        "y"
      ],
      [
        "ad",
        "s"
      ],
      [
        "Qui",
        "ck"
      ],
      [
        "El",
        "lapp"
      ],
      [
        "Sil",
        "vers"
      ],
      [
        "Ut",
        "happ"
      ],
      [
        "cri",
        "cket"
      ],
      [
        "Ellapp",
        "an"
      ],
      [
        "Uthapp",
        "a"
      ],
      [
        "2",
        "5"
      ],
      [
        "A",
        "U"
      ],
      [
        "C",
        "AU"
      ],
      [
        "E",
        "S1"
      ],
      [
        "G",
        "H"
      ],
      [
        "M",
        "or"
      ],
      [
        "a",
        "p"
      ],
      [
        "a",
        "u"
      ],
      [
        "c",
        "au"
      ],
      [
        "g",
        "ap"
      ],
      [
        "o",
        "ff"
      ],
      [
        "t",
        "i"
      ],
      [
        "t",
        "wo"
      ],
      [
        "t",
        "lo"
      ],
      [
        "u",
        "gh"
      ],
      [
        "ro",
        "ugh"
      ],
      [
        "17",
        "0"
      ],
      [
        "20",
        "6"
      ],
      [
        "ou",
        "r"
      ],
      [
        "CAU",
        "GH"
      ],
      [
        "Mor",
        "tlo"
      ],
      [
        "cau",
        "ght"
      ],
      [
        "CAUGH",
        "T"
      ],
      [
        "Mortlo",
        "ck"
      ],
      [
        "C",
        "hand"
      ],
      [
        "T",
        "hat"
      ],
      [
        "r",
        "an"
      ],
      [
        "t",
        "id"
      ],
      [
        "er",
        "s"
      ],
      [
        "th",
        "rough"
      ],
      [
        "re",
        "a"
      ],
      [
        "Chand",
        "ran"
      ],
      [
        "tid",
        "y"
      ],
      [
        "2",
        "2"
      ],
      [
        "A",
        "mb"
      ],
      [
        "C",
        "um"
      ],
      [
        "D",
        "es"
      ],
      [
        "G",
        "ai"
      ],
      [
        "P",
        "u"
      ],
      [
        "d",
        "g"
      ],
      [
        "f",
        "our"
      ],
      [
        "h",
        "p"
      ],
      [
        "k",
        "w"
      ],
      [
        "m",
        "in"
      ],
      [
        "n",
        "s"
      ],
      [
        "n",
        "u"
      ],
      [
        "r",
        "a"
      ],
      [
        "ha",
        "r"
      ],
      [
        "ro",
        "se"
      ],
      [
        "and",
        "e"
      ],
      [
        "str",
        "ai"
      ],
      [
        "sh",
        "ed"
      ],
      [
        "Amb",
        "rose"
      ],
      [
        "Cum",
        "min"
      ],
      [
        "Des",
        "hp"
      ],
      [
        "Gai",
        "kw"
      ],
      [
        "Pu",
        "shed"
      ],
      [
        "dg",
        "es"
      ],
      [
        "nu",
        "dges"
      ],
      [
        "strai",
        "ght"
      ],
      [
        "Cummin",
        "s"
      ],
      [
        "Deshp",
        "ande"
      ],
      [
        "Gaikw",
        "ad"
      ],
      [
        "B",
        "ar"
      ],
      [
        "D",
        "ES1"
      ],
      [
        "N",
        "es"
      ],
      [
        "T",
        "ha"
      ],
      [
        "b",
        "it"
      ],
      [
        "c",
        "e"
      ],
      [
        "i",
        "f"
      ],
      [
        "k",
        "s"
      ],
      [
        "m",
        "p"
      ],
      [
        "r",
        "et"
      ],
      [
        "w",
        "or"
      ],
      [
        "17",
        "9"
      ],
      [
        "WI",
        "DES1"
      ],
      [
        "keep",
        "er"
      ],
      [
        "Bar",
        "ret"
      ],
      [
        "Nes",
        "bit"
      ],
      [
        "Tha",
        "mp"
      ],
      [
        "wor",
        "ks"
      ],
      [
        "Barret",
        "to"
      ],
      [
        "Nesbit",
        "t"
      ],
      [
        "Thamp",
        "i"
      ],
      [
        "2",
        "1"
      ],
      [
        "2",
        "3"
      ],
      [
        "H",
        "ar"
      ],
      [
        "H",
        "ero"
      ],
      [
        "J",
        "en"
      ],
      [
        "b",
        "or"
      ],
      [
        "e",
        "w"
      ],
      [
        "i",
        "ew"
      ],
      [
        "p",
        "e"
      ],
      [
        "v",
        "iew"
      ],
      [
        "le",
        "ts"
      ],
      [
        "ning",
        "s"
      ],
      [
        "al",
        "le"
      ],
      [
        "Har",
        "bor"
      ],
      [
        "Hero",
        "ns"
      ],
      [
        "Jen",
        "nings"
      ],
      [
        "Harbor",
        "view"
      ],
      [
        "G",
        "rea"
      ],
      [
        "I",
        "ves"
      ],
      [
        "M",
        "i"
      ],
      [
        "P",
        "e"
      ],
      [
        "P",
        "il"
      ],
      [
        "R",
        "o"
      ],
      [
        "b",
        "a"
      ],
      [
        "s",
        "i"
      ],
      [
        "la",
        "i"
      ],
      [
        "th",
        "well"
      ],
      [
        "ro",
        "n"
      ],
      [
        "mber",
        "ton"
      ],
      [
        "str",
        "y"
      ],
      [
        "Grea",
        "ves"
      ],
      [
        "Mi",
        "stry"
      ],
      [
        "Pe",
        "mberton"
      ],
      [
        "Pil",
        "lai"
      ],
      [
        "Ro",
        "thwell"
      ],
      [
        "2",
        "4"
      ],
      [
        "C",
        "or"
      ],
      [
        "C",
        "it"
      ],
      [
        "C",
        "har"
      ],
      [
        "I",
        "nt"
      ],
      [
        "N",
        "o"
      ],
      [
        "Z",
        "ut"
      ],
      [
        "a",
        "b"
      ],
      [
        "c",
        "h"
      ],
      [
        "c",
        "r"
      ],
      [
        "g",
        "ers"
      ],
      [
        "i",
        "le"
      ],
      [
        "m",
        "as"
      ],
      [
        "m",
        "ile"
      ],
      [
        "s",
        "hi"
      ],
      [
        "v",
        "e"
      ],
      [
        "ow",
        "d"
      ],
      [
        "ut",
        "ely"
      ],
      [
        "un",
        "ch"
      ],
      [
        "la",
        "unch"
      ],
      [
        "ro",
        "pe"
      ],
      [
        "ing",
        "s"
      ],
      [
        "OU",
        "T"
      ],
      [
        "keep",
        "s"
      ],
      [
        "sol",
        "utely"
      ],
      [
        "ba",
        "ll"
      ],
      [
        "si",
        "ve"
      ],
      [
        "Cor",
        "al"
      ],
      [
        "Cit",
        "y"
      ],
      [
        "Char",
        "gers"
      ],
      [
        "Int",
        "o"
      ],
      [
        "Zut",
        "shi"
      ],
      [
        "ab",
        "solutely"
      ],
      [
        "cr",
        "owd"
      ],
      [
        "mas",
        "sive"
      ],
      [
        "mile",
        "s"
      ],
      [
        "launch",
        "es"
      ],
      [
        "A",
        "d"
      ],
      [
        "B",
        "O"
      ],
      [
        "K",
        "ings"
      ],
      [
        "N",
        "om"
      ],
      [
        "N",
        "or"
      ],
      [
        "S",
        "a"
      ],
      [
        "W",
        "hat"
      ],
      [
        "W",
        "LE"
      ],
      [
        "a",
        "nt"
      ],
      [
        "b",
        "e"
      ],
      [
        "b",
        "ri"
      ],
      [
        "e",
        "nd"
      ],
      [
        "f",
        "end"
      ],
      [
        "g",
        "ate"
      ],
      [
        "i",
        "ant"
      ],
      [
        "l",
        "y"
      ],
      [
        "m",
        "an"
      ],
      [
        "u",
        "ge"
      ],
      [
        "v",
        "ani"
      ],
      [
        "th",
        "re"
      ],
      [
        "th",
        "gate"
      ],
      [
        "id",
        "ly"
      ],
      [
        "ll",
        "iant"
      ],
      [
        "de",
        "fend"
      ],
      [
        "ck",
        "ing"
      ],
      [
        "st",
        "ay"
      ],
      [
        "hi",
        "s"
      ],
      [
        "ff",
        "ron"
      ],
      [
        "sol",
        "idly"
      ],
      [
        "ge",
        "ts"
      ],
      [
        "Ad",
        "vani"
      ],
      [
        "BO",
        "WLE"
      ],
      [
        "Nom",
        "ads"
      ],
      [
        "Nor",
        "thgate"
      ],
      [
        "Sa",
        "ffron"
      ],
      [
        "bri",
        "lliant"
      ],
      [
        "defend",
        "s"
      ],
      [
        "BOWLE",
        "D"
      ],
      [
        "3",
        "0"
      ],
      [
        "D",
        "ot"
      ],
      [
        "N",
        "i"
      ],
      [
        "O",
        "ck"
      ],
      [
        "c",
        "ed"
      ],
      [
        "c",
        "ely"
      ],
      [
        "p",
        "s"
      ],
      [
        "p",
        "la"
      ],
      [
        "s",
        "hat"
      ],
      [
        "s",
        "ix"
      ],
      [
        "um",
        "ps"
      ],
      [
        "ter",
        "ed"
      ],
      [
        "de",
        "d"
      ],
      [
        "st",
        "umps"
      ],
      [
        "ti",
        "ght"
      ],
      [
        "alle",
        "d"
      ],
      [
        "Ni",
        "cely"
      ],
      [
        "Ock",
        "well"
      ],
      [
        "pla",
        "ced"
      ],
      [
        "shat",
        "tered"
      ],
      [
        "C",
        "ra"
      ],
      [
        "G",
        "O"
      ],
      [
        "N",
        "E"
      ],
      [
        "W",
        "ide"
      ],
      [
        "c",
        "es"
      ],
      [
        "c",
        "alled"
      ],
      [
        "d",
        "ow"
      ],
      [
        "f",
        "en"
      ],
      [
        "g",
        "if"
      ],
      [
        "h",
        "er"
      ],
      [
        "k",
        "ha"
      ],
      [
        "k",
        "es"
      ],
      [
        "m",
        "es"
      ],
      [
        "s",
        "ide"
      ],
      [
        "u",
        "ll"
      ],
      [
        "w",
        "ide"
      ],
      [
        "ha",
        "s"
      ],
      [
        "ay",
        "s"
      ],
      [
        "ri",
        "kes"
      ],
      [
        "st",
        "rikes"
      ],
      [
        "aut",
        "if"
      ],
      [
        "str",
        "ays"
      ],
      [
        "La",
        "kha"
      ],
      [
        "sh",
        "ot"
      ],
      [
        "ti",
        "mes"
      ],
      [
        "ra",
        "ces"
      ],
      [
        "be",
        "autif"
      ],
      [
        "thre",
        "ads"
      ],
      [
        "Cra",
        "cking"
      ],
      [
        "GO",
        "NE"
      ],
      [
        "dow",
        "n"
      ],
      [
        "fen",
        "ce"
      ],
      [
        "gif",
        "t"
      ],
      [
        "her",
        "e"
      ],
      [
        "ull",
        "y"
      ],
      [
        "Lakha",
        "ni"
      ],
      [
        "beautif",
        "ully"
      ],
      [
        "1",
        "12"
      ],
      [
        "2",
        "6"
      ],
      [
        "2",
        "8"
      ],
      [
        "3",
        "7"
      ],
      [
        "4",
        "6"
      ],
      [
        "5",
        "3"
      ],
      [
        "5",
        "5"
      ],
      [
        "7",
        "5"
      ],
      [
        "B",
        "la"
      ],
      [
        "H",
        "uge"
      ],
      [
        "a",
        "il"
      ],
      [
        "c",
        "l"
      ],
      [
        "e",
        "ded"
      ],
      [
        "i",
        "mb"
      ],
      [
        "p",
        "ers"
      ],
      [
        "s",
        "ail"
      ],
      [
        "ar",
        "s"
      ],
      [
        "10",
        "8"
      ],
      [
        "16",
        "9"
      ],
      [
        "ne",
        "eded"
      ],
      [
        "cl",
        "imb"
      ],
      [
        "sail",
        "s"
      ],
      [
        "climb",
        "s"
      ],
      [
        "2",
        "7"
      ],
      [
        "3",
        "1"
      ],
      [
        "3",
        "3"
      ],
      [
        "3",
        "4"
      ],
      [
        "3",
        "6"
      ],
      [
        "4",
        "1"
      ],
      [
        "4",
        "5"
      ],
      [
        "4",
        "9"
      ],
      [
        "5",
        "7"
      ],
      [
        "8",
        "2"
      ],
      [
        "9",
        "1"
      ],
      [
        "9",
        "8"
      ],
      [
        "A",
        "no"
      ],
      [
        "B",
        "Y"
      ],
      [
        "G",
        "l"
      ],
      [
        "N",
        "a"
      ],
      [
        "T",
        "wo"
      ],
      [
        "V",
        "i"
      ],
      [
        "V",
        "el"
      ],
      [
        "V",
        "alle"
      ],
      [
        "c",
        "ha"
      ],
      [
        "d",
        "s"
      ],
      [
        "d",
        "ot"
      ],
      [
        "e",
        "e"
      ],
      [
        "i",
        "ou"
      ],
      [
        "n",
        "ce"
      ],
      [
        "o",
        "o"
      ],
      [
        "q",
        "u"
      ],
      [
        "r",
        "es"
      ],
      [
        "s",
        "qu"
      ],
      [
        "v",
        "et"
      ],
      [
        "z",
        "ing"
      ],
      [
        "ha",
        "d"
      ],
      [
        "or",
        "iou"
      ],
      [
        "th",
        "er"
      ],
      [
        "id",
        "u"
      ],
      [
        "16",
        "1"
      ],
      [
        "13",
        "4"
      ],
      [
        "by",
        "es"
      ],
      [
        "har",
        "d"
      ],
      [
        "Ano",
        "ther"
      ],
      [
        "Gl",
        "oriou"
      ],
      [
        "Na",
        "idu"
      ],
      [
        "Vi",
        "pers"
      ],
      [
        "Vel",
        "vet"
      ],
      [
        "Valle",
        "y"
      ],
      [
        "cha",
        "nce"
      ],
      [
        "ee",
        "zing"
      ],
      [
        "squ",
        "eezing"
      ],
      [
        "Gloriou",
        "s"
      ],
      [
        "4",
        "3"
      ],
      [
        "5",
        "0"
      ],
      [
        "5",
        "8"
      ],
      [
        "6",
        "5"
      ],
      [
        "7",
        "7"
      ],
      [
        "9",
        "2"
      ],
      [
        "9",
        "9"
      ],
      [
        "B",
        "ay"
      ],
      [
        "B",
        "as"
      ],
      [
        "F",
        "ar"
      ],
      [
        "H",
        "a"
      ],
      [
        "V",
        "er"
      ],
      [
        "b",
        "rea"
      ],
      [
        "c",
        "an"
      ],
      [
        "h",
        "uge"
      ],
      [
        "i",
        "k"
      ],
      [
        "k",
        "through"
      ],
      [
        "p",
        "ar"
      ],
      [
        "q",
        "i"
      ],
      [
        "s",
        "ter"
      ],
      [
        "u",
        "p"
      ],
      [
        "z",
        "ar"
      ],
      [
        "la",
        "nder"
      ],
      [
        "10",
        "2"
      ],
      [
        "10",
        "7"
      ],
      [
        "ro",
        "ars"
      ],
      [
        "de",
        "par"
      ],
      [
        "16",
        "3"
      ],
      [
        "12",
        "6"
      ],
      [
        "13",
        "5"
      ],
      [
        "al",
        "t"
      ],
      [
        "Bla",
        "ster"
      ],
      [
        "BY",
        "ES1"
      ],
      [
        "oo",
        "qi"
      ],
      [
        "Bas",
        "alt"
      ],
      [
        "Far",
        "ooqi"
      ],
      [
        "Ha",
        "zar"
      ],
      [
        "Ver",
        "lander"
      ],
      [
        "brea",
        "kthrough"
      ],
      [
        "ik",
        "a"
      ],
      [
        "depar",
        "ts"
      ],
      [
        "Blaster",
        "s"
      ],
      [
        "Hazar",
        "ika"
      ],
      [
        "0",
        "3"
      ],
      [
        "0",
        "5"
      ],
      [
        "0",
        "9"
      ],
      [
        "1",
        "17"
      ],
      [
        "1",
        "19"
      ],
      [
        "2",
        "9"
      ],
      [
        "3",
        "5"
      ],
      [
        "4",
        "2"
      ],
      [
        "4",
        "4"
      ],
      [
        "4",
        "7"
      ],
      [
        "4",
        "8"
      ],
      [
        "5",
        "4"
      ],
      [
        "5",
        "6"
      ],
      [
        "5",
        "9"
      ],
      [
        "6",
        "1"
      ],
      [
        "6",
        "3"
      ],
      [
        "6",
        "4"
      ],
      [
        "7",
        "1"
      ],
      [
        "7",
        "2"
      ],
      [
        "7",
        "6"
      ],
      [
        "8",
        "0"
      ],
      [
        "8",
        "1"
      ],
      [
        "8",
        "3"
      ],
      [
        "8",
        "5"
      ],
      [
        "8",
        "6"
      ],
      [
        "9",
        "0"
      ],
      [
        "9",
        "3"
      ],
      [
        "9",
        "5"
      ],
      [
        "9",
        "6"
      ],
      [
        "9",
        "7"
      ],
      [
        "A",
        "L"
      ],
      [
        "B",
        "W"
      ],
      [
        "B",
        "AL"
      ],
      [
        "E",
        "E"
      ],
      [
        "F",
        "al"
      ],
      [
        "F",
        "our"
      ],
      [
        "G",
        "BYES1"
      ],
      [
        "H",
        "R"
      ],
      [
        "I",
        "ron"
      ],
      [
        "L",
        "S1"
      ],
      [
        "L",
        "BW"
      ],
      [
        "N",
        "O"
      ],
      [
        "S",
        "m"
      ],
      [
        "S",
        "up"
      ],
      [
        "T",
        "h"
      ],
      [
        "T",
        "HR"
      ],
      [
        "a",
        "k"
      ],
      [
        "b",
        "o"
      ],
      [
        "b",
        "u"
      ],
      [
        "b",
        "ou"
      ],
      [
        "c",
        "o"
      ],
      [
        "c",
        "le"
      ],
      [
        "e",
        "ver"
      ],
      [
        "f",
        "in"
      ],
      [
        "i",
        "th"
      ],
      [
        "o",
        "d"
      ],
      [
        "p",
        "res"
      ],
      [
        "s",
        "u"
      ],
      [
        "w",
        "ith"
      ],
      [
        "er",
        "b"
      ],
      [
        "in",
        "field"
      ],
      [
        "nd",
        "ar"
      ],
      [
        "at",
        "ing"
      ],
      [
        "ar",
        "d"
      ],
      [
        "ar",
        "t"
      ],
      [
        "le",
        "g"
      ],
      [
        "10",
        "0"
      ],
      [
        "10",
        "6"
      ],
      [
        "17",
        "7"
      ],
      [
        "17",
        "8"
      ],
      [
        "ck",
        "wo"
      ],
      [
        "16",
        "0"
      ],
      [
        "16",
        "5"
      ],
      [
        "ad",
        "ded"
      ],
      [
        "LE",
        "GBYES1"
      ],
      [
        "12",
        "2"
      ],
      [
        "12",
        "3"
      ],
      [
        "12",
        "8"
      ],
      [
        "19",
        "2"
      ],
      [
        "13",
        "8"
      ],
      [
        "13",
        "9"
      ],
      [
        "Qu",
        "res"
      ],
      [
        "15",
        "0"
      ],
      [
        "15",
        "4"
      ],
      [
        "15",
        "7"
      ],
      [
        "15",
        "8"
      ],
      [
        "il",
        "ds"
      ],
      [
        "14",
        "8"
      ],
      [
        "ti",
        "cking"
      ],
      [
        "ce",
        "nt"
      ],
      [
        "pe",
        "ak"
      ],
      [
        "be",
        "ating"
      ],
      [
        "thre",
        "e"
      ],
      [
        "Bla",
        "ckwo"
      ],
      [
        "BAL",
        "LS1"
      ],
      [
        "Fal",
        "co"
      ],
      [
        "Iron",
        "peak"
      ],
      [
        "NO",
        "BALLS1"
      ],
      [
        "Sm",
        "art"
      ],
      [
        "Sup",
        "erb"
      ],
      [
        "THR",
        "EE"
      ],
      [
        "bo",
        "ard"
      ],
      [
        "bu",
        "ilds"
      ],
      [
        "bou",
        "ndar"
      ],
      [
        "cle",
        "ars"
      ],
      [
        "ever",
        "y"
      ],
      [
        "fin",
        "ds"
      ],
      [
        "pres",
        "su"
      ],
      [
        "Qures",
        "hi"
      ],
      [
        "Blackwo",
        "od"
      ],
      [
        "Falco",
        "ns"
      ],
      [
        "boundar",
        "y"
      ],
      [
        "pressu",
        "re"
      ],
      [
        "0",
        "2"
      ],
      [
        "0",
        "4"
      ],
      [
        "0",
        "6"
      ],
      [
        "0",
        "8"
      ],
      [
        "3",
        "2"
      ],
      [
        "3",
        "8"
      ],
      [
        "3",
        "9"
      ],
      [
        "4",
        "0"
      ],
      [
        "5",
        "1"
      ],
      [
        "5",
        "2"
      ],
      [
        "6",
        "0"
      ],
      [
        "6",
        "6"
      ],
      [
        "6",
        "7"
      ],
      [
        "6",
        "9"
      ],
      [
        "7",
        "3"
      ],
      [
        "7",
        "4"
      ],
      [
        "7",
        "8"
      ],
      [
        "7",
        "9"
      ],
      [
        "8",
        "4"
      ],
      [
        "8",
        "7"
      ],
      [
        "8",
        "8"
      ],
      [
        "8",
        "9"
      ],
      [
        "D",
        "e"
      ],
      [
        "E",
        "S"
      ],
      [
        "M",
        "a"
      ],
      [
        "N",
        "_"
      ],
      [
        "O",
        "ff"
      ],
      [
        "R",
        "U"
      ],
      [
        "a",
        "g"
      ],
      [
        "b",
        "r"
      ],
      [
        "b",
        "w"
      ],
      [
        "c",
        "t"
      ],
      [
        "c",
        "rea"
      ],
      [
        "f",
        "t"
      ],
      [
        "f",
        "le"
      ],
      [
        "f",
        "ro"
      ],
      [
        "g",
        "n"
      ],
      [
        "g",
        "ath"
      ],
      [
        "i",
        "m"
      ],
      [
        "l",
        "d"
      ],
      [
        "l",
        "um"
      ],
      [
        "l",
        "bw"
      ],
      [
        "m",
        "o"
      ],
      [
        "m",
        "ore"
      ],
      [
        "m",
        "ag"
      ],
      [
        "o",
        "f"
      ],
      [
        "p",
        "ads"
      ],
      [
        "p",
        "lum"
      ],
      [
        "r",
        "y"
      ],
      [
        "s",
        "s"
      ],
      [
        "t",
        "ra"
      ],
      [
        "u",
        "ry"
      ],
      [
        "x",
        "im"
      ],
      [
        "un",
        "lo"
      ],
      [
        "over",
        "st"
      ],
      [
        "over",
        "sh"
      ],
      [
        "sc",
        "am"
      ],
      [
        "bowl",
        "ed"
      ],
      [
        "10",
        "1"
      ],
      [
        "10",
        "4"
      ],
      [
        "10",
        "9"
      ],
      [
        "the",
        "y"
      ],
      [
        "17",
        "3"
      ],
      [
        "18",
        "4"
      ],
      [
        "18",
        "5"
      ],
      [
        "18",
        "6"
      ],
      [
        "16",
        "2"
      ],
      [
        "16",
        "4"
      ],
      [
        "16",
        "6"
      ],
      [
        "fi",
        "cent"
      ],
      [
        "fi",
        "ft"
      ],
      [
        "re",
        "mo"
      ],
      [
        "12",
        "5"
      ],
      [
        "19",
        "1"
      ],
      [
        "19",
        "4"
      ],
      [
        "13",
        "0"
      ],
      [
        "13",
        "1"
      ],
      [
        "13",
        "2"
      ],
      [
        "13",
        "6"
      ],
      [
        "ni",
        "ficent"
      ],
      [
        "11",
        "1"
      ],
      [
        "15",
        "1"
      ],
      [
        "15",
        "2"
      ],
      [
        "15",
        "3"
      ],
      [
        "cro",
        "ss"
      ],
      [
        "pp",
        "ed"
      ],
      [
        "20",
        "1"
      ],
      [
        "14",
        "2"
      ],
      [
        "14",
        "3"
      ],
      [
        "14",
        "4"
      ],
      [
        "14",
        "6"
      ],
      [
        "ep",
        "s"
      ],
      [
        "go",
        "ld"
      ],
      [
        "ba",
        "ck"
      ],
      [
        "si",
        "gn"
      ],
      [
        "BY",
        "ES"
      ],
      [
        "oo",
        "ts"
      ],
      [
        "Th",
        "e"
      ],
      [
        "Th",
        "rough"
      ],
      [
        "cent",
        "ury"
      ],
      [
        "every",
        "one"
      ],
      [
        "De",
        "fle"
      ],
      [
        "Ma",
        "xim"
      ],
      [
        "N_",
        "OUT"
      ],
      [
        "RU",
        "N_OUT"
      ],
      [
        "br",
        "ings"
      ],
      [
        "ct",
        "ed"
      ],
      [
        "crea",
        "se"
      ],
      [
        "fro",
        "nt"
      ],
      [
        "gath",
        "er"
      ],
      [
        "mag",
        "nificent"
      ],
      [
        "plum",
        "b"
      ],
      [
        "tra",
        "pped"
      ],
      [
        "unlo",
        "ads"
      ],
      [
        "overst",
        "eps"
      ],
      [
        "oversh",
        "oots"
      ],
      [
        "scam",
        "pers"
      ],
      [
        "fift",
        "y"
      ],
      [
        "remo",
        "ves"
      ],
      [
        "sign",
        "alled"
      ],
      [
        "BYES",
        "2"
      ],
      [
        "Defle",
        "cted"
      ],
      [
        "Maxim",
        "um"
      ]
    ]
  }
}